{"<pad>": 0, "<unk>": 1, "<en>": 2, "ㄅㄚ": 3, "ㄅㄚˇ": 4, "ㄅㄚˊ": 5, "ㄅㄚˋ": 6, "ㄅㄚ˙": 7, "ㄅㄛ": 8, "ㄅㄛˇ": 9, "ㄅㄛˊ": 10, "ㄅㄛˋ": 11, "ㄅㄛ˙": 12, "ㄅㄞ": 13, "ㄅㄞˇ": 14, "ㄅㄞˊ": 15, "ㄅㄞˋ": 16, "ㄅㄟ": 17, "ㄅㄟˇ": 18, "ㄅㄟˋ": 19, "ㄅㄟ˙": 20, "ㄅㄠ": 21, "ㄅㄠˇ": 22, "ㄅㄠˊ": 23, "ㄅㄠˋ": 24, "ㄅㄢ": 25, "ㄅㄢˇ": 26, "ㄅㄢˋ": 27, "ㄅㄢ˙": 28, "ㄅㄣ": 29, "ㄅㄣˇ": 30, "ㄅㄣˋ": 31, "ㄅㄤ": 32, "ㄅㄤˇ": 33, "ㄅㄤˋ": 34, "ㄅㄥ": 35, "ㄅㄥˇ": 36, "ㄅㄥˊ": 37, "ㄅㄥˋ": 38, "ㄅㄧ": 39, "ㄅㄧˇ": 40, "ㄅㄧˊ": 41, "ㄅㄧˋ": 42, "ㄅㄧㄝ": 43, "ㄅㄧㄝˇ": 44, "ㄅㄧㄝˊ": 45, "ㄅㄧㄝˋ": 46, "ㄅㄧㄠ": 47, "ㄅㄧㄠˇ": 48, "ㄅㄧㄠˋ": 49, "ㄅㄧㄢ": 50, "ㄅㄧㄢˇ": 51, "ㄅㄧㄢˋ": 52, "ㄅㄧㄢ˙": 53, "ㄅㄧㄣ": 54, "ㄅㄧㄣˋ": 55, "ㄅㄧㄥ": 56, "ㄅㄧㄥˇ": 57, "ㄅㄧㄥˋ": 58, "ㄅㄨ": 59, "ㄅㄨˇ": 60, "ㄅㄨˊ": 61, "ㄅㄨˋ": 62, "ㄆㄚ": 63, "ㄆㄚˊ": 64, "ㄆㄚˋ": 65, "ㄆㄛ": 66, "ㄆㄛˇ": 67, "ㄆㄛˊ": 68, "ㄆㄛˋ": 69, "ㄆㄛ˙": 70, "ㄆㄞ": 71, "ㄆㄞˇ": 72, "ㄆㄞˊ": 73, "ㄆㄞˋ": 74, "ㄆㄟ": 75, "ㄆㄟˇ": 76, "ㄆㄟˊ": 77, "ㄆㄟˋ": 78, "ㄆㄠ": 79, "ㄆㄠˇ": 80, "ㄆㄠˊ": 81, "ㄆㄠˋ": 82, "ㄆㄡ": 83, "ㄆㄡˇ": 84, "ㄆㄡˊ": 85, "ㄆㄡˋ": 86, "ㄆㄢ": 87, "ㄆㄢˇ": 88, "ㄆㄢˊ": 89, "ㄆㄢˋ": 90, "ㄆㄣ": 91, "ㄆㄣˇ": 92, "ㄆㄣˊ": 93, "ㄆㄣˋ": 94, "ㄆㄤ": 95, "ㄆㄤˇ": 96, "ㄆㄤˊ": 97, "ㄆㄤˋ": 98, "ㄆㄥ": 99, "ㄆㄥˇ": 100, "ㄆㄥˊ": 101, "ㄆㄥˋ": 102, "ㄆㄧ": 103, "ㄆㄧˇ": 104, "ㄆㄧˊ": 105, "ㄆㄧˋ": 106, "ㄆㄧㄝ": 107, "ㄆㄧㄝˇ": 108, "ㄆㄧㄝˋ": 109, "ㄆㄧㄠ": 110, "ㄆㄧㄠˇ": 111, "ㄆㄧㄠˊ": 112, "ㄆㄧㄠˋ": 113, "ㄆㄧㄢ": 114, "ㄆㄧㄢˇ": 115, "ㄆㄧㄢˊ": 116, "ㄆㄧㄢˋ": 117, "ㄆㄧㄣ": 118, "ㄆㄧㄣˇ": 119, "ㄆㄧㄣˊ": 120, "ㄆㄧㄣˋ": 121, "ㄆㄧㄥ": 122, "ㄆㄧㄥˇ": 123, "ㄆㄧㄥˊ": 124, "ㄆㄧㄥˋ": 125, "ㄆㄨ": 126, "ㄆㄨˇ": 127, "ㄆㄨˊ": 128, "ㄆㄨˋ": 129, "ㄇㄚ": 130, "ㄇㄚˇ": 131, "ㄇㄚˊ": 132, "ㄇㄚˋ": 133, "ㄇㄚ˙": 134, "ㄇㄛ": 135, "ㄇㄛˇ": 136, "ㄇㄛˊ": 137, "ㄇㄛˋ": 138, "ㄇㄜ˙": 139, "ㄇㄞˇ": 140, "ㄇㄞˊ": 141, "ㄇㄞˋ": 142, "ㄇㄟˇ": 143, "ㄇㄟˊ": 144, "ㄇㄟˋ": 145, "ㄇㄠ": 146, "ㄇㄠˇ": 147, "ㄇㄠˊ": 148, "ㄇㄠˋ": 149, "ㄇㄡ": 150, "ㄇㄡˇ": 151, "ㄇㄡˊ": 152, "ㄇㄢ": 153, "ㄇㄢˇ": 154, "ㄇㄢˊ": 155, "ㄇㄢˋ": 156, "ㄇㄣ": 157, "ㄇㄣˊ": 158, "ㄇㄣˋ": 159, "ㄇㄣ˙": 160, "ㄇㄤˇ": 161, "ㄇㄤˊ": 162, "ㄇㄥ": 163, "ㄇㄥˇ": 164, "ㄇㄥˊ": 165, "ㄇㄥˋ": 166, "ㄇㄧ": 167, "ㄇㄧˇ": 168, "ㄇㄧˊ": 169, "ㄇㄧˋ": 170, "ㄇㄧㄝ": 171, "ㄇㄧㄝˋ": 172, "ㄇㄧㄝ˙": 173, "ㄇㄧㄠ": 174, "ㄇㄧㄠˇ": 175, "ㄇㄧㄠˊ": 176, "ㄇㄧㄠˋ": 177, "ㄇㄧㄡˋ": 178, "ㄇㄧㄢˇ": 179, "ㄇㄧㄢˊ": 180, "ㄇㄧㄢˋ": 181, "ㄇㄧㄣˇ": 182, "ㄇㄧㄣˊ": 183, "ㄇㄧㄥˇ": 184, "ㄇㄧㄥˊ": 185, "ㄇㄧㄥˋ": 186, "ㄇㄨ": 187, "ㄇㄨˇ": 188, "ㄇㄨˊ": 189, "ㄇㄨˋ": 190, "ㄈㄚ": 191, "ㄈㄚˇ": 192, "ㄈㄚˊ": 193, "ㄈㄚˋ": 194, "ㄈㄛˊ": 195, "ㄈㄟ": 196, "ㄈㄟˇ": 197, "ㄈㄟˊ": 198, "ㄈㄟˋ": 199, "ㄈㄡ": 200, "ㄈㄡˇ": 201, "ㄈㄡˊ": 202, "ㄈㄢ": 203, "ㄈㄢˇ": 204, "ㄈㄢˊ": 205, "ㄈㄢˋ": 206, "ㄈㄣ": 207, "ㄈㄣˇ": 208, "ㄈㄣˊ": 209, "ㄈㄣˋ": 210, "ㄈㄤ": 211, "ㄈㄤˇ": 212, "ㄈㄤˊ": 213, "ㄈㄤˋ": 214, "ㄈㄥ": 215, "ㄈㄥˇ": 216, "ㄈㄥˊ": 217, "ㄈㄥˋ": 218, "ㄈㄧㄠˋ": 219, "ㄈㄨ": 220, "ㄈㄨˇ": 221, "ㄈㄨˊ": 222, "ㄈㄨˋ": 223, "ㄉㄚ": 224, "ㄉㄚˇ": 225, "ㄉㄚˊ": 226, "ㄉㄚˋ": 227, "ㄉㄚ˙": 228, "ㄉㄜˊ": 229, "ㄉㄜ˙": 230, "ㄉㄞ": 231, "ㄉㄞˇ": 232, "ㄉㄞˋ": 233, "ㄉㄟˇ": 234, "ㄉㄠ": 235, "ㄉㄠˇ": 236, "ㄉㄠˊ": 237, "ㄉㄠˋ": 238, "ㄉㄡ": 239, "ㄉㄡˇ": 240, "ㄉㄡˋ": 241, "ㄉㄢ": 242, "ㄉㄢˇ": 243, "ㄉㄢˋ": 244, "ㄉㄣˋ": 245, "ㄉㄤ": 246, "ㄉㄤˇ": 247, "ㄉㄤˋ": 248, "ㄉㄤ˙": 249, "ㄉㄥ": 250, "ㄉㄥˇ": 251, "ㄉㄥˋ": 252, "ㄉㄧ": 253, "ㄉㄧˇ": 254, "ㄉㄧˊ": 255, "ㄉㄧˋ": 256, "ㄉㄧㄚˇ": 257, "ㄉㄧㄝ": 258, "ㄉㄧㄝˇ": 259, "ㄉㄧㄝˊ": 260, "ㄉㄧㄝˋ": 261, "ㄉㄧㄠ": 262, "ㄉㄧㄠˇ": 263, "ㄉㄧㄠˋ": 264, "ㄉㄧㄡ": 265, "ㄉㄧㄢ": 266, "ㄉㄧㄢˇ": 267, "ㄉㄧㄢˋ": 268, "ㄉㄧㄥ": 269, "ㄉㄧㄥˇ": 270, "ㄉㄧㄥˋ": 271, "ㄉㄨ": 272, "ㄉㄨˇ": 273, "ㄉㄨˊ": 274, "ㄉㄨˋ": 275, "ㄉㄨㄛ": 276, "ㄉㄨㄛˇ": 277, "ㄉㄨㄛˊ": 278, "ㄉㄨㄛˋ": 279, "ㄉㄨㄟ": 280, "ㄉㄨㄟˇ": 281, "ㄉㄨㄟˋ": 282, "ㄉㄨㄢ": 283, "ㄉㄨㄢˇ": 284, "ㄉㄨㄢˋ": 285, "ㄉㄨㄣ": 286, "ㄉㄨㄣˇ": 287, "ㄉㄨㄣˋ": 288, "ㄉㄨㄥ": 289, "ㄉㄨㄥˇ": 290, "ㄉㄨㄥˋ": 291, "ㄊㄚ": 292, "ㄊㄚˇ": 293, "ㄊㄚˋ": 294, "ㄊㄚ˙": 295, "ㄊㄜˋ": 296, "ㄊㄞ": 297, "ㄊㄞˇ": 298, "ㄊㄞˊ": 299, "ㄊㄞˋ": 300, "ㄊㄟ": 301, "ㄊㄠ": 302, "ㄊㄠˇ": 303, "ㄊㄠˊ": 304, "ㄊㄠˋ": 305, "ㄊㄡ": 306, "ㄊㄡˇ": 307, "ㄊㄡˊ": 308, "ㄊㄡˋ": 309, "ㄊㄡ˙": 310, "ㄊㄢ": 311, "ㄊㄢˇ": 312, "ㄊㄢˊ": 313, "ㄊㄢˋ": 314, "ㄊㄤ": 315, "ㄊㄤˇ": 316, "ㄊㄤˊ": 317, "ㄊㄤˋ": 318, "ㄊㄥ": 319, "ㄊㄥˊ": 320, "ㄊㄥˋ": 321, "ㄊㄧ": 322, "ㄊㄧˇ": 323, "ㄊㄧˊ": 324, "ㄊㄧˋ": 325, "ㄊㄧㄝ": 326, "ㄊㄧㄝˇ": 327, "ㄊㄧㄝˋ": 328, "ㄊㄧㄠ": 329, "ㄊㄧㄠˇ": 330, "ㄊㄧㄠˊ": 331, "ㄊㄧㄠˋ": 332, "ㄊㄧㄠ˙": 333, "ㄊㄧㄢ": 334, "ㄊㄧㄢˇ": 335, "ㄊㄧㄢˊ": 336, "ㄊㄧㄢˋ": 337, "ㄊㄧㄥ": 338, "ㄊㄧㄥˇ": 339, "ㄊㄧㄥˊ": 340, "ㄊㄧㄥˋ": 341, "ㄊㄨ": 342, "ㄊㄨˇ": 343, "ㄊㄨˊ": 344, "ㄊㄨˋ": 345, "ㄊㄨㄛ": 346, "ㄊㄨㄛˇ": 347, "ㄊㄨㄛˊ": 348, "ㄊㄨㄛˋ": 349, "ㄊㄨㄟ": 350, "ㄊㄨㄟˇ": 351, "ㄊㄨㄟˊ": 352, "ㄊㄨㄟˋ": 353, "ㄊㄨㄢ": 354, "ㄊㄨㄢˇ": 355, "ㄊㄨㄢˊ": 356, "ㄊㄨㄢˋ": 357, "ㄊㄨㄣ": 358, "ㄊㄨㄣˇ": 359, "ㄊㄨㄣˊ": 360, "ㄊㄨㄣˋ": 361, "ㄊㄨㄥ": 362, "ㄊㄨㄥˇ": 363, "ㄊㄨㄥˊ": 364, "ㄊㄨㄥˋ": 365, "ㄋ˙": 366, "ㄋㄍˇ": 367, "ㄋㄍˊ": 368, "ㄋㄍˋ": 369, "ㄋㄍ˙": 370, "ㄋㄚ": 371, "ㄋㄚˇ": 372, "ㄋㄚˊ": 373, "ㄋㄚˋ": 374, "ㄋㄚ˙": 375, "ㄋㄜˊ": 376, "ㄋㄜˋ": 377, "ㄋㄜ˙": 378, "ㄋㄞˇ": 379, "ㄋㄞˊ": 380, "ㄋㄞˋ": 381, "ㄋㄟˇ": 382, "ㄋㄟˋ": 383, "ㄋㄠ": 384, "ㄋㄠˇ": 385, "ㄋㄠˊ": 386, "ㄋㄠˋ": 387, "ㄋㄡˊ": 388, "ㄋㄡˋ": 389, "ㄋㄢ": 390, "ㄋㄢˇ": 391, "ㄋㄢˊ": 392, "ㄋㄢˋ": 393, "ㄋㄣˋ": 394, "ㄋㄤ": 395, "ㄋㄤˇ": 396, "ㄋㄤˊ": 397, "ㄋㄤˋ": 398, "ㄋㄤ˙": 399, "ㄋㄥˇ": 400, "ㄋㄥˊ": 401, "ㄋㄧ": 402, "ㄋㄧˇ": 403, "ㄋㄧˊ": 404, "ㄋㄧˋ": 405, "ㄋㄧㄝ": 406, "ㄋㄧㄝˊ": 407, "ㄋㄧㄝˋ": 408, "ㄋㄧㄠˇ": 409, "ㄋㄧㄠˋ": 410, "ㄋㄧㄡ": 411, "ㄋㄧㄡˇ": 412, "ㄋㄧㄡˊ": 413, "ㄋㄧㄡˋ": 414, "ㄋㄧㄢ": 415, "ㄋㄧㄢˇ": 416, "ㄋㄧㄢˊ": 417, "ㄋㄧㄢˋ": 418, "ㄋㄧㄣˇ": 419, "ㄋㄧㄣˊ": 420, "ㄋㄧㄤˊ": 421, "ㄋㄧㄤˋ": 422, "ㄋㄧㄥˇ": 423, "ㄋㄧㄥˊ": 424, "ㄋㄧㄥˋ": 425, "ㄋㄨˇ": 426, "ㄋㄨˊ": 427, "ㄋㄨˋ": 428, "ㄋㄨㄛˇ": 429, "ㄋㄨㄛˊ": 430, "ㄋㄨㄛˋ": 431, "ㄋㄨㄢˇ": 432, "ㄋㄨㄢˊ": 433, "ㄋㄨㄢˋ": 434, "ㄋㄨㄥˇ": 435, "ㄋㄨㄥˊ": 436, "ㄋㄨㄥˋ": 437, "ㄋㄩˇ": 438, "ㄋㄩˋ": 439, "ㄋㄩㄝˋ": 440, "ㄌㄚ": 441, "ㄌㄚˇ": 442, "ㄌㄚˊ": 443, "ㄌㄚˋ": 444, "ㄌㄚ˙": 445, "ㄌㄛ˙": 446, "ㄌㄜ": 447, "ㄌㄜˋ": 448, "ㄌㄜ˙": 449, "ㄌㄞˊ": 450, "ㄌㄞˋ": 451, "ㄌㄟ": 452, "ㄌㄟˇ": 453, "ㄌㄟˊ": 454, "ㄌㄟˋ": 455, "ㄌㄟ˙": 456, "ㄌㄠ": 457, "ㄌㄠˇ": 458, "ㄌㄠˊ": 459, "ㄌㄠˋ": 460, "ㄌㄡ": 461, "ㄌㄡˇ": 462, "ㄌㄡˊ": 463, "ㄌㄡˋ": 464, "ㄌㄡ˙": 465, "ㄌㄢˇ": 466, "ㄌㄢˊ": 467, "ㄌㄢˋ": 468, "ㄌㄤ": 469, "ㄌㄤˇ": 470, "ㄌㄤˊ": 471, "ㄌㄤˋ": 472, "ㄌㄥ": 473, "ㄌㄥˇ": 474, "ㄌㄥˊ": 475, "ㄌㄥˋ": 476, "ㄌㄧ": 477, "ㄌㄧˇ": 478, "ㄌㄧˊ": 479, "ㄌㄧˋ": 480, "ㄌㄧ˙": 481, "ㄌㄧㄚˇ": 482, "ㄌㄧㄝ": 483, "ㄌㄧㄝˇ": 484, "ㄌㄧㄝˊ": 485, "ㄌㄧㄝˋ": 486, "ㄌㄧㄝ˙": 487, "ㄌㄧㄠ": 488, "ㄌㄧㄠˇ": 489, "ㄌㄧㄠˊ": 490, "ㄌㄧㄠˋ": 491, "ㄌㄧㄡ": 492, "ㄌㄧㄡˇ": 493, "ㄌㄧㄡˊ": 494, "ㄌㄧㄡˋ": 495, "ㄌㄧㄢˇ": 496, "ㄌㄧㄢˊ": 497, "ㄌㄧㄢˋ": 498, "ㄌㄧㄣ": 499, "ㄌㄧㄣˇ": 500, "ㄌㄧㄣˊ": 501, "ㄌㄧㄣˋ": 502, "ㄌㄧㄤˇ": 503, "ㄌㄧㄤˊ": 504, "ㄌㄧㄤˋ": 505, "ㄌㄧㄥ": 506, "ㄌㄧㄥˇ": 507, "ㄌㄧㄥˊ": 508, "ㄌㄧㄥˋ": 509, "ㄌㄨ": 510, "ㄌㄨˇ": 511, "ㄌㄨˊ": 512, "ㄌㄨˋ": 513, "ㄌㄨㄛ": 514, "ㄌㄨㄛˇ": 515, "ㄌㄨㄛˊ": 516, "ㄌㄨㄛˋ": 517, "ㄌㄨㄛ˙": 518, "ㄌㄨㄢˇ": 519, "ㄌㄨㄢˊ": 520, "ㄌㄨㄢˋ": 521, "ㄌㄨㄣ": 522, "ㄌㄨㄣˇ": 523, "ㄌㄨㄣˊ": 524, "ㄌㄨㄣˋ": 525, "ㄌㄨㄥ": 526, "ㄌㄨㄥˇ": 527, "ㄌㄨㄥˊ": 528, "ㄌㄨㄥˋ": 529, "ㄌㄩˇ": 530, "ㄌㄩˊ": 531, "ㄌㄩˋ": 532, "ㄌㄩㄝˇ": 533, "ㄌㄩㄝˋ": 534, "ㄍㄚ": 535, "ㄍㄚˇ": 536, "ㄍㄚˊ": 537, "ㄍㄚˋ": 538, "ㄍㄜ": 539, "ㄍㄜˇ": 540, "ㄍㄜˊ": 541, "ㄍㄜˋ": 542, "ㄍㄞ": 543, "ㄍㄞˇ": 544, "ㄍㄞˋ": 545, "ㄍㄟˇ": 546, "ㄍㄠ": 547, "ㄍㄠˇ": 548, "ㄍㄠˋ": 549, "ㄍㄡ": 550, "ㄍㄡˇ": 551, "ㄍㄡˋ": 552, "ㄍㄢ": 553, "ㄍㄢˇ": 554, "ㄍㄢˋ": 555, "ㄍㄣ": 556, "ㄍㄣˇ": 557, "ㄍㄣˊ": 558, "ㄍㄣˋ": 559, "ㄍㄤ": 560, "ㄍㄤˇ": 561, "ㄍㄤˋ": 562, "ㄍㄥ": 563, "ㄍㄥˇ": 564, "ㄍㄥˋ": 565, "ㄍㄨ": 566, "ㄍㄨˇ": 567, "ㄍㄨˊ": 568, "ㄍㄨˋ": 569, "ㄍㄨ˙": 570, "ㄍㄨㄚ": 571, "ㄍㄨㄚˇ": 572, "ㄍㄨㄚˋ": 573, "ㄍㄨㄛ": 574, "ㄍㄨㄛˇ": 575, "ㄍㄨㄛˊ": 576, "ㄍㄨㄛˋ": 577, "ㄍㄨㄛ˙": 578, "ㄍㄨㄞ": 579, "ㄍㄨㄞˇ": 580, "ㄍㄨㄞˋ": 581, "ㄍㄨㄟ": 582, "ㄍㄨㄟˇ": 583, "ㄍㄨㄟˋ": 584, "ㄍㄨㄢ": 585, "ㄍㄨㄢˇ": 586, "ㄍㄨㄢˋ": 587, "ㄍㄨㄣˇ": 588, "ㄍㄨㄣˋ": 589, "ㄍㄨㄤ": 590, "ㄍㄨㄤˇ": 591, "ㄍㄨㄤˋ": 592, "ㄍㄨㄥ": 593, "ㄍㄨㄥˇ": 594, "ㄍㄨㄥˋ": 595, "ㄎㄚ": 596, "ㄎㄚˇ": 597, "ㄎㄜ": 598, "ㄎㄜˇ": 599, "ㄎㄜˊ": 600, "ㄎㄜˋ": 601, "ㄎㄜ˙": 602, "ㄎㄞ": 603, "ㄎㄞˇ": 604, "ㄎㄞˋ": 605, "ㄎㄟ": 606, "ㄎㄠ": 607, "ㄎㄠˇ": 608, "ㄎㄠˋ": 609, "ㄎㄡ": 610, "ㄎㄡˇ": 611, "ㄎㄡˋ": 612, "ㄎㄢ": 613, "ㄎㄢˇ": 614, "ㄎㄢˋ": 615, "ㄎㄣˇ": 616, "ㄎㄣˋ": 617, "ㄎㄤ": 618, "ㄎㄤˇ": 619, "ㄎㄤˊ": 620, "ㄎㄤˋ": 621, "ㄎㄥ": 622, "ㄎㄥˇ": 623, "ㄎㄨ": 624, "ㄎㄨˇ": 625, "ㄎㄨˋ": 626, "ㄎㄨㄚ": 627, "ㄎㄨㄚˇ": 628, "ㄎㄨㄚˋ": 629, "ㄎㄨㄛˋ": 630, "ㄎㄨㄞˇ": 631, "ㄎㄨㄞˋ": 632, "ㄎㄨㄟ": 633, "ㄎㄨㄟˇ": 634, "ㄎㄨㄟˊ": 635, "ㄎㄨㄟˋ": 636, "ㄎㄨㄢ": 637, "ㄎㄨㄢˇ": 638, "ㄎㄨㄣ": 639, "ㄎㄨㄣˇ": 640, "ㄎㄨㄣˋ": 641, "ㄎㄨㄤ": 642, "ㄎㄨㄤˇ": 643, "ㄎㄨㄤˊ": 644, "ㄎㄨㄤˋ": 645, "ㄎㄨㄥ": 646, "ㄎㄨㄥˇ": 647, "ㄎㄨㄥˋ": 648, "ㄏㄇ˙": 649, "ㄏㄋㄍ˙": 650, "ㄏㄚ": 651, "ㄏㄚˇ": 652, "ㄏㄚˊ": 653, "ㄏㄚˋ": 654, "ㄏㄜ": 655, "ㄏㄜˊ": 656, "ㄏㄜˋ": 657, "ㄏㄞ": 658, "ㄏㄞˇ": 659, "ㄏㄞˊ": 660, "ㄏㄞˋ": 661, "ㄏㄟ": 662, "ㄏㄠ": 663, "ㄏㄠˇ": 664, "ㄏㄠˊ": 665, "ㄏㄠˋ": 666, "ㄏㄡ": 667, "ㄏㄡˇ": 668, "ㄏㄡˊ": 669, "ㄏㄡˋ": 670, "ㄏㄢ": 671, "ㄏㄢˇ": 672, "ㄏㄢˊ": 673, "ㄏㄢˋ": 674, "ㄏㄣ": 675, "ㄏㄣˇ": 676, "ㄏㄣˊ": 677, "ㄏㄣˋ": 678, "ㄏㄤ": 679, "ㄏㄤˇ": 680, "ㄏㄤˊ": 681, "ㄏㄤˋ": 682, "ㄏㄥ": 683, "ㄏㄥˊ": 684, "ㄏㄥˋ": 685, "ㄏㄨ": 686, "ㄏㄨˇ": 687, "ㄏㄨˊ": 688, "ㄏㄨˋ": 689, "ㄏㄨㄚ": 690, "ㄏㄨㄚˊ": 691, "ㄏㄨㄚˋ": 692, "ㄏㄨㄛ": 693, "ㄏㄨㄛˇ": 694, "ㄏㄨㄛˊ": 695, "ㄏㄨㄛˋ": 696, "ㄏㄨㄛ˙": 697, "ㄏㄨㄞˊ": 698, "ㄏㄨㄞˋ": 699, "ㄏㄨㄞ˙": 700, "ㄏㄨㄟ": 701, "ㄏㄨㄟˇ": 702, "ㄏㄨㄟˊ": 703, "ㄏㄨㄟˋ": 704, "ㄏㄨㄢ": 705, "ㄏㄨㄢˇ": 706, "ㄏㄨㄢˊ": 707, "ㄏㄨㄢˋ": 708, "ㄏㄨㄣ": 709, "ㄏㄨㄣˇ": 710, "ㄏㄨㄣˊ": 711, "ㄏㄨㄣˋ": 712, "ㄏㄨㄤ": 713, "ㄏㄨㄤˇ": 714, "ㄏㄨㄤˊ": 715, "ㄏㄨㄤˋ": 716, "ㄏㄨㄤ˙": 717, "ㄏㄨㄥ": 718, "ㄏㄨㄥˇ": 719, "ㄏㄨㄥˊ": 720, "ㄏㄨㄥˋ": 721, "ㄐㄧ": 722, "ㄐㄧˇ": 723, "ㄐㄧˊ": 724, "ㄐㄧˋ": 725, "ㄐㄧㄚ": 726, "ㄐㄧㄚˇ": 727, "ㄐㄧㄚˊ": 728, "ㄐㄧㄚˋ": 729, "ㄐㄧㄚ˙": 730, "ㄐㄧㄝ": 731, "ㄐㄧㄝˇ": 732, "ㄐㄧㄝˊ": 733, "ㄐㄧㄝˋ": 734, "ㄐㄧㄝ˙": 735, "ㄐㄧㄠ": 736, "ㄐㄧㄠˇ": 737, "ㄐㄧㄠˊ": 738, "ㄐㄧㄠˋ": 739, "ㄐㄧㄡ": 740, "ㄐㄧㄡˇ": 741, "ㄐㄧㄡˋ": 742, "ㄐㄧㄡ˙": 743, "ㄐㄧㄢ": 744, "ㄐㄧㄢˇ": 745, "ㄐㄧㄢˋ": 746, "ㄐㄧㄣ": 747, "ㄐㄧㄣˇ": 748, "ㄐㄧㄣˋ": 749, "ㄐㄧㄤ": 750, "ㄐㄧㄤˇ": 751, "ㄐㄧㄤˋ": 752, "ㄐㄧㄥ": 753, "ㄐㄧㄥˇ": 754, "ㄐㄧㄥˋ": 755, "ㄐㄩ": 756, "ㄐㄩˇ": 757, "ㄐㄩˊ": 758, "ㄐㄩˋ": 759, "ㄐㄩㄝ": 760, "ㄐㄩㄝˇ": 761, "ㄐㄩㄝˊ": 762, "ㄐㄩㄝˋ": 763, "ㄐㄩㄢ": 764, "ㄐㄩㄢˇ": 765, "ㄐㄩㄢˋ": 766, "ㄐㄩㄣ": 767, "ㄐㄩㄣˋ": 768, "ㄐㄩㄥ": 769, "ㄐㄩㄥˇ": 770, "ㄑㄧ": 771, "ㄑㄧˇ": 772, "ㄑㄧˊ": 773, "ㄑㄧˋ": 774, "ㄑㄧㄚ": 775, "ㄑㄧㄚˇ": 776, "ㄑㄧㄚˋ": 777, "ㄑㄧㄝ": 778, "ㄑㄧㄝˇ": 779, "ㄑㄧㄝˊ": 780, "ㄑㄧㄝˋ": 781, "ㄑㄧㄠ": 782, "ㄑㄧㄠˇ": 783, "ㄑㄧㄠˊ": 784, "ㄑㄧㄠˋ": 785, "ㄑㄧㄡ": 786, "ㄑㄧㄡˇ": 787, "ㄑㄧㄡˊ": 788, "ㄑㄧㄡˋ": 789, "ㄑㄧㄢ": 790, "ㄑㄧㄢˇ": 791, "ㄑㄧㄢˊ": 792, "ㄑㄧㄢˋ": 793, "ㄑㄧㄣ": 794, "ㄑㄧㄣˇ": 795, "ㄑㄧㄣˊ": 796, "ㄑㄧㄣˋ": 797, "ㄑㄧㄤ": 798, "ㄑㄧㄤˇ": 799, "ㄑㄧㄤˊ": 800, "ㄑㄧㄤˋ": 801, "ㄑㄧㄥ": 802, "ㄑㄧㄥˇ": 803, "ㄑㄧㄥˊ": 804, "ㄑㄧㄥˋ": 805, "ㄑㄩ": 806, "ㄑㄩˇ": 807, "ㄑㄩˊ": 808, "ㄑㄩˋ": 809, "ㄑㄩ˙": 810, "ㄑㄩㄝ": 811, "ㄑㄩㄝˊ": 812, "ㄑㄩㄝˋ": 813, "ㄑㄩㄢ": 814, "ㄑㄩㄢˇ": 815, "ㄑㄩㄢˊ": 816, "ㄑㄩㄢˋ": 817, "ㄑㄩㄣ": 818, "ㄑㄩㄣˇ": 819, "ㄑㄩㄣˊ": 820, "ㄑㄩㄥ": 821, "ㄑㄩㄥˊ": 822, "ㄒㄧ": 823, "ㄒㄧˇ": 824, "ㄒㄧˊ": 825, "ㄒㄧˋ": 826, "ㄒㄧㄚ": 827, "ㄒㄧㄚˇ": 828, "ㄒㄧㄚˊ": 829, "ㄒㄧㄚˋ": 830, "ㄒㄧㄝ": 831, "ㄒㄧㄝˇ": 832, "ㄒㄧㄝˊ": 833, "ㄒㄧㄝˋ": 834, "ㄒㄧㄠ": 835, "ㄒㄧㄠˇ": 836, "ㄒㄧㄠˊ": 837, "ㄒㄧㄠˋ": 838, "ㄒㄧㄡ": 839, "ㄒㄧㄡˇ": 840, "ㄒㄧㄡˊ": 841, "ㄒㄧㄡˋ": 842, "ㄒㄧㄢ": 843, "ㄒㄧㄢˇ": 844, "ㄒㄧㄢˊ": 845, "ㄒㄧㄢˋ": 846, "ㄒㄧㄣ": 847, "ㄒㄧㄣˇ": 848, "ㄒㄧㄣˊ": 849, "ㄒㄧㄣˋ": 850, "ㄒㄧㄤ": 851, "ㄒㄧㄤˇ": 852, "ㄒㄧㄤˊ": 853, "ㄒㄧㄤˋ": 854, "ㄒㄧㄥ": 855, "ㄒㄧㄥˇ": 856, "ㄒㄧㄥˊ": 857, "ㄒㄧㄥˋ": 858, "ㄒㄩ": 859, "ㄒㄩˇ": 860, "ㄒㄩˊ": 861, "ㄒㄩˋ": 862, "ㄒㄩ˙": 863, "ㄒㄩㄝ": 864, "ㄒㄩㄝˇ": 865, "ㄒㄩㄝˊ": 866, "ㄒㄩㄝˋ": 867, "ㄒㄩㄢ": 868, "ㄒㄩㄢˇ": 869, "ㄒㄩㄢˊ": 870, "ㄒㄩㄢˋ": 871, "ㄒㄩㄣ": 872, "ㄒㄩㄣˊ": 873, "ㄒㄩㄣˋ": 874, "ㄒㄩㄥ": 875, "ㄒㄩㄥˇ": 876, "ㄒㄩㄥˊ": 877, "ㄒㄩㄥˋ": 878, "ㄓ": 879, "ㄓˇ": 880, "ㄓˊ": 881, "ㄓˋ": 882, "ㄓㄚ": 883, "ㄓㄚˇ": 884, "ㄓㄚˊ": 885, "ㄓㄚˋ": 886, "ㄓㄚ˙": 887, "ㄓㄜ": 888, "ㄓㄜˇ": 889, "ㄓㄜˊ": 890, "ㄓㄜˋ": 891, "ㄓㄜ˙": 892, "ㄓㄞ": 893, "ㄓㄞˇ": 894, "ㄓㄞˊ": 895, "ㄓㄞˋ": 896, "ㄓㄟˋ": 897, "ㄓㄠ": 898, "ㄓㄠˇ": 899, "ㄓㄠˊ": 900, "ㄓㄠˋ": 901, "ㄓㄡ": 902, "ㄓㄡˇ": 903, "ㄓㄡˊ": 904, "ㄓㄡˋ": 905, "ㄓㄢ": 906, "ㄓㄢˇ": 907, "ㄓㄢˋ": 908, "ㄓㄣ": 909, "ㄓㄣˇ": 910, "ㄓㄣˋ": 911, "ㄓㄤ": 912, "ㄓㄤˇ": 913, "ㄓㄤˋ": 914, "ㄓㄥ": 915, "ㄓㄥˇ": 916, "ㄓㄥˋ": 917, "ㄓㄨ": 918, "ㄓㄨˇ": 919, "ㄓㄨˊ": 920, "ㄓㄨˋ": 921, "ㄓㄨㄚ": 922, "ㄓㄨㄚˇ": 923, "ㄓㄨㄛ": 924, "ㄓㄨㄛˊ": 925, "ㄓㄨㄞ": 926, "ㄓㄨㄞˇ": 927, "ㄓㄨㄞˋ": 928, "ㄓㄨㄟ": 929, "ㄓㄨㄟˇ": 930, "ㄓㄨㄟˋ": 931, "ㄓㄨㄢ": 932, "ㄓㄨㄢˇ": 933, "ㄓㄨㄢˋ": 934, "ㄓㄨㄣ": 935, "ㄓㄨㄣˇ": 936, "ㄓㄨㄣˋ": 937, "ㄓㄨㄤ": 938, "ㄓㄨㄤˇ": 939, "ㄓㄨㄤˋ": 940, "ㄓㄨㄥ": 941, "ㄓㄨㄥˇ": 942, "ㄓㄨㄥˋ": 943, "ㄔ": 944, "ㄔˇ": 945, "ㄔˊ": 946, "ㄔˋ": 947, "ㄔ˙": 948, "ㄔㄚ": 949, "ㄔㄚˇ": 950, "ㄔㄚˊ": 951, "ㄔㄚˋ": 952, "ㄔㄜ": 953, "ㄔㄜˇ": 954, "ㄔㄜˋ": 955, "ㄔㄞ": 956, "ㄔㄞˊ": 957, "ㄔㄞˋ": 958, "ㄔㄠ": 959, "ㄔㄠˇ": 960, "ㄔㄠˊ": 961, "ㄔㄠˋ": 962, "ㄔㄡ": 963, "ㄔㄡˇ": 964, "ㄔㄡˊ": 965, "ㄔㄡˋ": 966, "ㄔㄢ": 967, "ㄔㄢˇ": 968, "ㄔㄢˊ": 969, "ㄔㄢˋ": 970, "ㄔㄣ": 971, "ㄔㄣˇ": 972, "ㄔㄣˊ": 973, "ㄔㄣˋ": 974, "ㄔㄣ˙": 975, "ㄔㄤ": 976, "ㄔㄤˇ": 977, "ㄔㄤˊ": 978, "ㄔㄤˋ": 979, "ㄔㄥ": 980, "ㄔㄥˇ": 981, "ㄔㄥˊ": 982, "ㄔㄥˋ": 983, "ㄔㄨ": 984, "ㄔㄨˇ": 985, "ㄔㄨˊ": 986, "ㄔㄨˋ": 987, "ㄔㄨㄚ": 988, "ㄔㄨㄛ": 989, "ㄔㄨㄛˋ": 990, "ㄔㄨㄞ": 991, "ㄔㄨㄞˇ": 992, "ㄔㄨㄞˊ": 993, "ㄔㄨㄞˋ": 994, "ㄔㄨㄟ": 995, "ㄔㄨㄟˊ": 996, "ㄔㄨㄟˋ": 997, "ㄔㄨㄢ": 998, "ㄔㄨㄢˇ": 999, "ㄔㄨㄢˊ": 1000, "ㄔㄨㄢˋ": 1001, "ㄔㄨㄣ": 1002, "ㄔㄨㄣˇ": 1003, "ㄔㄨㄣˊ": 1004, "ㄔㄨㄤ": 1005, "ㄔㄨㄤˇ": 1006, "ㄔㄨㄤˊ": 1007, "ㄔㄨㄤˋ": 1008, "ㄔㄨㄥ": 1009, "ㄔㄨㄥˇ": 1010, "ㄔㄨㄥˊ": 1011, "ㄔㄨㄥˋ": 1012, "ㄕ": 1013, "ㄕˇ": 1014, "ㄕˊ": 1015, "ㄕˋ": 1016, "ㄕ˙": 1017, "ㄕㄚ": 1018, "ㄕㄚˇ": 1019, "ㄕㄚˊ": 1020, "ㄕㄚˋ": 1021, "ㄕㄚ˙": 1022, "ㄕㄜ": 1023, "ㄕㄜˇ": 1024, "ㄕㄜˊ": 1025, "ㄕㄜˋ": 1026, "ㄕㄞ": 1027, "ㄕㄞˇ": 1028, "ㄕㄞˋ": 1029, "ㄕㄟˊ": 1030, "ㄕㄠ": 1031, "ㄕㄠˇ": 1032, "ㄕㄠˊ": 1033, "ㄕㄠˋ": 1034, "ㄕㄡ": 1035, "ㄕㄡˇ": 1036, "ㄕㄡˊ": 1037, "ㄕㄡˋ": 1038, "ㄕㄢ": 1039, "ㄕㄢˇ": 1040, "ㄕㄢˋ": 1041, "ㄕㄣ": 1042, "ㄕㄣˇ": 1043, "ㄕㄣˊ": 1044, "ㄕㄣˋ": 1045, "ㄕㄤ": 1046, "ㄕㄤˇ": 1047, "ㄕㄤˋ": 1048, "ㄕㄤ˙": 1049, "ㄕㄥ": 1050, "ㄕㄥˇ": 1051, "ㄕㄥˊ": 1052, "ㄕㄥˋ": 1053, "ㄕㄨ": 1054, "ㄕㄨˇ": 1055, "ㄕㄨˊ": 1056, "ㄕㄨˋ": 1057, "ㄕㄨㄚ": 1058, "ㄕㄨㄚˇ": 1059, "ㄕㄨㄚˋ": 1060, "ㄕㄨㄛ": 1061, "ㄕㄨㄛˊ": 1062, "ㄕㄨㄛˋ": 1063, "ㄕㄨㄞ": 1064, "ㄕㄨㄞˇ": 1065, "ㄕㄨㄞˋ": 1066, "ㄕㄨㄟˇ": 1067, "ㄕㄨㄟˊ": 1068, "ㄕㄨㄟˋ": 1069, "ㄕㄨㄢ": 1070, "ㄕㄨㄢˋ": 1071, "ㄕㄨㄣˇ": 1072, "ㄕㄨㄣˋ": 1073, "ㄕㄨㄤ": 1074, "ㄕㄨㄤˇ": 1075, "ㄕㄨㄤˋ": 1076, "ㄖˋ": 1077, "ㄖㄜˇ": 1078, "ㄖㄜˊ": 1079, "ㄖㄜˋ": 1080, "ㄖㄠˇ": 1081, "ㄖㄠˊ": 1082, "ㄖㄠˋ": 1083, "ㄖㄡˇ": 1084, "ㄖㄡˊ": 1085, "ㄖㄡˋ": 1086, "ㄖㄢˇ": 1087, "ㄖㄢˊ": 1088, "ㄖㄣˇ": 1089, "ㄖㄣˊ": 1090, "ㄖㄣˋ": 1091, "ㄖㄤ": 1092, "ㄖㄤˇ": 1093, "ㄖㄤˊ": 1094, "ㄖㄤˋ": 1095, "ㄖㄥ": 1096, "ㄖㄥˊ": 1097, "ㄖㄥˋ": 1098, "ㄖㄨˇ": 1099, "ㄖㄨˊ": 1100, "ㄖㄨˋ": 1101, "ㄖㄨㄚˊ": 1102, "ㄖㄨㄛˊ": 1103, "ㄖㄨㄛˋ": 1104, "ㄖㄨㄟˇ": 1105, "ㄖㄨㄟˊ": 1106, "ㄖㄨㄟˋ": 1107, "ㄖㄨㄢˇ": 1108, "ㄖㄨㄢˊ": 1109, "ㄖㄨㄢˋ": 1110, "ㄖㄨㄣˊ": 1111, "ㄖㄨㄣˋ": 1112, "ㄖㄨㄥ": 1113, "ㄖㄨㄥˇ": 1114, "ㄖㄨㄥˊ": 1115, "ㄗ": 1116, "ㄗˇ": 1117, "ㄗˊ": 1118, "ㄗˋ": 1119, "ㄗ˙": 1120, "ㄗㄚ": 1121, "ㄗㄚˇ": 1122, "ㄗㄚˊ": 1123, "ㄗㄚˋ": 1124, "ㄗㄜˊ": 1125, "ㄗㄜˋ": 1126, "ㄗㄜ˙": 1127, "ㄗㄞ": 1128, "ㄗㄞˇ": 1129, "ㄗㄞˋ": 1130, "ㄗㄟˊ": 1131, "ㄗㄠ": 1132, "ㄗㄠˇ": 1133, "ㄗㄠˊ": 1134, "ㄗㄠˋ": 1135, "ㄗㄡ": 1136, "ㄗㄡˇ": 1137, "ㄗㄡˋ": 1138, "ㄗㄢ": 1139, "ㄗㄢˇ": 1140, "ㄗㄢˊ": 1141, "ㄗㄢˋ": 1142, "ㄗㄢ˙": 1143, "ㄗㄣˇ": 1144, "ㄗㄣˋ": 1145, "ㄗㄤ": 1146, "ㄗㄤˇ": 1147, "ㄗㄤˋ": 1148, "ㄗㄥ": 1149, "ㄗㄥˇ": 1150, "ㄗㄥˋ": 1151, "ㄗㄨ": 1152, "ㄗㄨˇ": 1153, "ㄗㄨˊ": 1154, "ㄗㄨˋ": 1155, "ㄗㄨㄛ": 1156, "ㄗㄨㄛˇ": 1157, "ㄗㄨㄛˊ": 1158, "ㄗㄨㄛˋ": 1159, "ㄗㄨㄟ": 1160, "ㄗㄨㄟˇ": 1161, "ㄗㄨㄟˋ": 1162, "ㄗㄨㄢ": 1163, "ㄗㄨㄢˇ": 1164, "ㄗㄨㄢˋ": 1165, "ㄗㄨㄣ": 1166, "ㄗㄨㄣˇ": 1167, "ㄗㄨㄣˊ": 1168, "ㄗㄨㄣˋ": 1169, "ㄗㄨㄥ": 1170, "ㄗㄨㄥˇ": 1171, "ㄗㄨㄥˋ": 1172, "ㄘ": 1173, "ㄘˇ": 1174, "ㄘˊ": 1175, "ㄘˋ": 1176, "ㄘㄚ": 1177, "ㄘㄚˇ": 1178, "ㄘㄚˋ": 1179, "ㄘㄜˋ": 1180, "ㄘㄞ": 1181, "ㄘㄞˇ": 1182, "ㄘㄞˊ": 1183, "ㄘㄞˋ": 1184, "ㄘㄠ": 1185, "ㄘㄠˇ": 1186, "ㄘㄠˊ": 1187, "ㄘㄠˋ": 1188, "ㄘㄡ": 1189, "ㄘㄡˇ": 1190, "ㄘㄡˋ": 1191, "ㄘㄢ": 1192, "ㄘㄢˇ": 1193, "ㄘㄢˊ": 1194, "ㄘㄢˋ": 1195, "ㄘㄣ": 1196, "ㄘㄣˊ": 1197, "ㄘㄤ": 1198, "ㄘㄤˇ": 1199, "ㄘㄤˊ": 1200, "ㄘㄥ": 1201, "ㄘㄥˊ": 1202, "ㄘㄥˋ": 1203, "ㄘㄨ": 1204, "ㄘㄨˇ": 1205, "ㄘㄨˊ": 1206, "ㄘㄨˋ": 1207, "ㄘㄨㄛ": 1208, "ㄘㄨㄛˇ": 1209, "ㄘㄨㄛˊ": 1210, "ㄘㄨㄛˋ": 1211, "ㄘㄨㄟ": 1212, "ㄘㄨㄟˇ": 1213, "ㄘㄨㄟˋ": 1214, "ㄘㄨㄢ": 1215, "ㄘㄨㄢˊ": 1216, "ㄘㄨㄢˋ": 1217, "ㄘㄨㄣ": 1218, "ㄘㄨㄣˇ": 1219, "ㄘㄨㄣˊ": 1220, "ㄘㄨㄣˋ": 1221, "ㄘㄨㄥ": 1222, "ㄘㄨㄥˊ": 1223, "ㄘㄨㄥˋ": 1224, "ㄙ": 1225, "ㄙˇ": 1226, "ㄙˋ": 1227, "ㄙ˙": 1228, "ㄙㄚ": 1229, "ㄙㄚˇ": 1230, "ㄙㄚˋ": 1231, "ㄙㄜˋ": 1232, "ㄙㄞ": 1233, "ㄙㄞˋ": 1234, "ㄙㄠ": 1235, "ㄙㄠˇ": 1236, "ㄙㄠˋ": 1237, "ㄙㄡ": 1238, "ㄙㄡˇ": 1239, "ㄙㄡˋ": 1240, "ㄙㄢ": 1241, "ㄙㄢˇ": 1242, "ㄙㄢˋ": 1243, "ㄙㄣ": 1244, "ㄙㄣˇ": 1245, "ㄙㄤ": 1246, "ㄙㄤˇ": 1247, "ㄙㄤˋ": 1248, "ㄙㄥ": 1249, "ㄙㄨ": 1250, "ㄙㄨˊ": 1251, "ㄙㄨˋ": 1252, "ㄙㄨㄛ": 1253, "ㄙㄨㄛˇ": 1254, "ㄙㄨㄛˋ": 1255, "ㄙㄨㄛ˙": 1256, "ㄙㄨㄟ": 1257, "ㄙㄨㄟˇ": 1258, "ㄙㄨㄟˊ": 1259, "ㄙㄨㄟˋ": 1260, "ㄙㄨㄢ": 1261, "ㄙㄨㄢˇ": 1262, "ㄙㄨㄢˋ": 1263, "ㄙㄨㄣ": 1264, "ㄙㄨㄣˇ": 1265, "ㄙㄨㄣˋ": 1266, "ㄙㄨㄥ": 1267, "ㄙㄨㄥˇ": 1268, "ㄙㄨㄥˊ": 1269, "ㄙㄨㄥˋ": 1270, "ㄚ": 1271, "ㄚˇ": 1272, "ㄚˊ": 1273, "ㄚˋ": 1274, "ㄚ˙": 1275, "ㄛ": 1276, "ㄛˇ": 1277, "ㄛˊ": 1278, "ㄛˋ": 1279, "ㄛ˙": 1280, "ㄜ": 1281, "ㄜˇ": 1282, "ㄜˊ": 1283, "ㄜˋ": 1284, "ㄜ˙": 1285, "ㄝ": 1286, "ㄝˇ": 1287, "ㄝˊ": 1288, "ㄝˋ": 1289, "ㄞ": 1290, "ㄞˇ": 1291, "ㄞˊ": 1292, "ㄞˋ": 1293, "ㄟ": 1294, "ㄟˇ": 1295, "ㄟˊ": 1296, "ㄟˋ": 1297, "ㄠ": 1298, "ㄠˇ": 1299, "ㄠˊ": 1300, "ㄠˋ": 1301, "ㄡ": 1302, "ㄡˇ": 1303, "ㄡˊ": 1304, "ㄡˋ": 1305, "ㄡ˙": 1306, "ㄢ": 1307, "ㄢˇ": 1308, "ㄢˊ": 1309, "ㄢˋ": 1310, "ㄣ": 1311, "ㄣˇ": 1312, "ㄣˊ": 1313, "ㄣˋ": 1314, "ㄤ": 1315, "ㄤˊ": 1316, "ㄤˋ": 1317, "ㄥ": 1318, "ㄦˇ": 1319, "ㄦˊ": 1320, "ㄦˋ": 1321, "ㄦ˙": 1322, "ㄧ": 1323, "ㄧˇ": 1324, "ㄧˊ": 1325, "ㄧˋ": 1326, "ㄧㄚ": 1327, "ㄧㄚˇ": 1328, "ㄧㄚˊ": 1329, "ㄧㄚˋ": 1330, "ㄧㄚ˙": 1331, "ㄧㄛ": 1332, "ㄧㄛ˙": 1333, "ㄧㄝ": 1334, "ㄧㄝˇ": 1335, "ㄧㄝˊ": 1336, "ㄧㄝˋ": 1337, "ㄧㄠ": 1338, "ㄧㄠˇ": 1339, "ㄧㄠˊ": 1340, "ㄧㄠˋ": 1341, "ㄧㄡ": 1342, "ㄧㄡˇ": 1343, "ㄧㄡˊ": 1344, "ㄧㄡˋ": 1345, "ㄧㄡ˙": 1346, "ㄧㄢ": 1347, "ㄧㄢˇ": 1348, "ㄧㄢˊ": 1349, "ㄧㄢˋ": 1350, "ㄧㄣ": 1351, "ㄧㄣˇ": 1352, "ㄧㄣˊ": 1353, "ㄧㄣˋ": 1354, "ㄧㄣ˙": 1355, "ㄧㄤ": 1356, "ㄧㄤˇ": 1357, "ㄧㄤˊ": 1358, "ㄧㄤˋ": 1359, "ㄧㄥ": 1360, "ㄧㄥˇ": 1361, "ㄧㄥˊ": 1362, "ㄧㄥˋ": 1363, "ㄨ": 1364, "ㄨˇ": 1365, "ㄨˊ": 1366, "ㄨˋ": 1367, "ㄨㄚ": 1368, "ㄨㄚˇ": 1369, "ㄨㄚˊ": 1370, "ㄨㄚˋ": 1371, "ㄨㄚ˙": 1372, "ㄨㄛ": 1373, "ㄨㄛˇ": 1374, "ㄨㄛˋ": 1375, "ㄨㄞ": 1376, "ㄨㄞˇ": 1377, "ㄨㄞˋ": 1378, "ㄨㄟ": 1379, "ㄨㄟˇ": 1380, "ㄨㄟˊ": 1381, "ㄨㄟˋ": 1382, "ㄨㄢ": 1383, "ㄨㄢˇ": 1384, "ㄨㄢˊ": 1385, "ㄨㄢˋ": 1386, "ㄨㄣ": 1387, "ㄨㄣˇ": 1388, "ㄨㄣˊ": 1389, "ㄨㄣˋ": 1390, "ㄨㄤ": 1391, "ㄨㄤˇ": 1392, "ㄨㄤˊ": 1393, "ㄨㄤˋ": 1394, "ㄨㄥ": 1395, "ㄨㄥˇ": 1396, "ㄨㄥˋ": 1397, "ㄩ": 1398, "ㄩˇ": 1399, "ㄩˊ": 1400, "ㄩˋ": 1401, "ㄩㄝ": 1402, "ㄩㄝˇ": 1403, "ㄩㄝˋ": 1404, "ㄩㄢ": 1405, "ㄩㄢˇ": 1406, "ㄩㄢˊ": 1407, "ㄩㄢˋ": 1408, "ㄩㄣ": 1409, "ㄩㄣˇ": 1410, "ㄩㄣˊ": 1411, "ㄩㄣˋ": 1412, "ㄩㄥ": 1413, "ㄩㄥˇ": 1414, "ㄩㄥˊ": 1415, "ㄩㄥˋ": 1416, "ㄇㄜ": 1417, "ㄇㄞ": 1418, "ㄇㄟ": 1419, "ㄇㄤ": 1420, "ㄇㄧㄡ": 1421, "ㄇㄧㄢ": 1422, "ㄇㄧㄣ": 1423, "ㄇㄧㄥ": 1424, "ㄈㄛ": 1425, "ㄈㄧㄠ": 1426, "ㄉㄜ": 1427, "ㄉㄟ": 1428, "ㄉㄣ": 1429, "ㄉㄧㄚ": 1430, "ㄊㄜ": 1431, "ㄋ": 1432, "ㄋㄍ": 1433, "ㄋㄜ": 1434, "ㄋㄞ": 1435, "ㄋㄟ": 1436, "ㄋㄡ": 1437, "ㄋㄣ": 1438, "ㄋㄥ": 1439, "ㄋㄧㄠ": 1440, "ㄋㄧㄣ": 1441, "ㄋㄧㄤ": 1442, "ㄋㄧㄥ": 1443, "ㄋㄨ": 1444, "ㄋㄨㄛ": 1445, "ㄋㄨㄢ": 1446, "ㄋㄨㄥ": 1447, "ㄋㄩ": 1448, "ㄋㄩㄝ": 1449, "ㄌㄛ": 1450, "ㄌㄞ": 1451, "ㄌㄢ": 1452, "ㄌㄧㄚ": 1453, "ㄌㄧㄢ": 1454, "ㄌㄧㄤ": 1455, "ㄌㄨㄢ": 1456, "ㄌㄩ": 1457, "ㄌㄩㄝ": 1458, "ㄍㄟ": 1459, "ㄍㄨㄣ": 1460, "ㄎㄣ": 1461, "ㄎㄨㄛ": 1462, "ㄎㄨㄞ": 1463, "ㄏㄇ": 1464, "ㄏㄋㄍ": 1465, "ㄏㄨㄞ": 1466, "ㄓㄟ": 1467, "ㄕㄟ": 1468, "ㄕㄨㄟ": 1469, "ㄕㄨㄣ": 1470, "ㄖ": 1471, "ㄖㄜ": 1472, "ㄖㄠ": 1473, "ㄖㄡ": 1474, "ㄖㄢ": 1475, "ㄖㄣ": 1476, "ㄖㄨ": 1477, "ㄖㄨㄚ": 1478, "ㄖㄨㄛ": 1479, "ㄖㄨㄟ": 1480, "ㄖㄨㄢ": 1481, "ㄖㄨㄣ": 1482, "ㄗㄜ": 1483, "ㄗㄟ": 1484, "ㄗㄣ": 1485, "ㄘㄜ": 1486, "ㄙㄜ": 1487, "ㄦ": 1488}